▁
##a
ya
wa
na
##ka
ku
m
ma
u
##i
##ni
kwa
##o
k
ki
ni
##li
kati
##e
##d
ali
##wa
##na
##b
##f
##si
##u
za
##kuwa
##c
la
##ri
##ki
##zi
##ma
##ji
##ra
vi
##ti
##s
hu
##ko
cha
##n
##ta
##le
##te
##m
wana
mi
##po
##la
s
##ba
##sha
##fu
##t
nchi
##mba
ili
kama
##za
##wenye
ha
##3
##4
ina
##we
##ku
##r
wali
##7
##kubwa
##ha
##sa
##fa
pia
##5
##0
##tu
##k
kuwa
moja
##pa
##ru
##isha
##kana
##me
##mbali
ana
##zo
##mu
yake
##da
##to
##8
##di
mwa
##ngine
sana
##moja
##ja
##nga
amba
kuto
##kati
##9
##mi
##hi
##weza
##ya
vya
##6
##re
##ke
##ga
##nda
watu
##2
##ani
##ro
##lo
##cha
pa
##pi
##_
##mbo
##bu
##yo
##taifa
kuna
##zaidi
##l
n
##1
##ye
hii
tan
hiyo
mia
##zania
##g
##ne
##vu
elfu
##mbili
##fanya
una
au
ta
afri
tu
##be
##ea
##no
##mo
##shi
##pe
##wi
ba
##ngo
##hara
##cho
##ehemu
sa
wake
##y
##go
##wengi
##h
##baada
si
mara
laki
##sema
##se
ame
##ini
##pata
zina
mash
##che
hata
##nya
##kali
##p
##ndo
maji
##hivyo
##ana
##ndi
##nyama
##ishi
##ngu
##vyo
##onjwa
##mwaka
##ariki
##wanza
kila
huo
##lugha
nyi
##lu
##tumia
mji
##shiri
##lia
##endel
##on
##pati
hadi
##nu
##ho
##ge
##bo
me
siku
ime
##gu
kumi
hasa
ja
hali
##mani
##de
tisa
uli
hi
##anza
juu
##je
eneo
##j
##vi
##mbi
##ndani
kazi
##pande
##su
##fauti
##jeshi
ug
mkuu
##bari
##mp
##mbe
seri
##liwa
##nge
##usini
##uhimu
bara
##tokea
saba
tatu
zili
##shind
##ano
##aribu
##ongoz
##juli
w
lina
rais
##sw
huu
##dunia
##dogo
##tanga
kuu
##cheza
##aeneo
##aribi
##ereza
##an
to
##ona
##fadhi
aki
vita
##so
hawa
baad
lili
##tawal
jina
##sho
##kundi
sasa
hilo
##yingi
##hu
##asili
##ju
##nde
##va
##toka
##kenya
##kwa
we
##nzi
0
##askaz
mkoa
kuli
##fe
##toto
##chini
##gi
##heshi
##w
##kula
##aji
##rini
##damu
aina
mar
##ongez
nyum
ny
asi
his
##ng
##miwa
##shu
##tangu
##toria
##yenye
##ngi
##ganda
tano
##husi
bi
duni
mtu
##husu
##anga
##wili
##fiki
##fuata
##waida
##fem
##iwa
##kazi
mat
##he
baha
wao
##sabab
##ia
wame
haku
##taji
##chumi
##sta
##ishwa
mwi
##rangi
sita
##chu
##ita
##itwa
##mbu
##zuri
##jiji
##pu
##kabil
##iliyo
##jamii
##jerum
muda
##chi
##en
##yu
iko
nne
njia
##rehe
mu
##atifu
##ekani
hayo
huwa
##ilaya
kale
bu
##in
##shwa
##el
kuji
##zwa
timu
yao
us
aka
hili
##ilima
bila
##mwezi
##she
mazi
##ondo
wote
##ingi
huko
zote
##anz
##ika
##chang
##ahili
vile
nane
##zungu
##voice
comm
##badil
##risto
##shule
##kongo
##talii
##38
##ambu
##abisa
sw
ishi
waki
bias
##tumik
##saidi
leo
##mengi
##chama
haya
nje
##arufu
pili
##dhi
##ulaya
##57
uta
##anisa
hizi
##hami
mto
##aliye
##59
##ngwa
##singi
##rusi
##siasa
##ria
uing
##pindi
##miaka
##kiwa
##ze
##taka
mag
al
yote
##chuku
twen
##wahi
uch
hapo
##fasi
##12
##68
magh
hizo
dar
##83
##oliki
mtak
##mili
##th
##pekee
##jana
##viazi
##ties
##demok
##58
##andik
##inayo
##20
##kuu
yeye
##hali
kisw
##pita
##kata
##ndege
##mbele
uk
##rasia
zake
##mhuri
##nchi
##teng
##thi
##idadi
##mwana
##adhaa
##nzo
##ce
##shaji
bora
haki
v
##oneka
##walio
##ee
##ababu
##kabla
##milia
hao
##fanyi
##tatu
##82
##ingia
##zibar
ndio
##bb
##liyo
zao
##ajili
##mlima
##alama
ziwa
##mpaka
##pwani
##ngozi
##hauri
##07
zan
##wake
##lioni
##soma
mama
##ngira
ufa
##elimu
##97
##jimbo
kima
##rudi
##pitia
##ghuli
##ziri
hapa
##amini
mada
##64
##jumla
##heria
##toa
##uhuru
hivi
##iko
bina
##bd
hewa
##kumbu
##52
##dc
##penda
##pungu
##bara
##weka
##ambao
##nyika
tena
##dhidi
##zaliw
##32
##02
##safi
##39
dha
##liko
tuna
##lishe
##inine
##mfano
##13
##kutan
##zima
##ndu
chuo
baba
##aduni
##nayo
##wisho
##nywa
##71
##akiwa
##gemea
##pishi
iki
##60
##limu
##28
##athir
##bunge
##50
##limia
##jua
ulio
##onye
##37
##hindi
##doksi
##nyo
##nja
##rtho
ume
##mita
kum
##99
##zu
mpya
tak
dali
##14
##fika
##53
##74
##slamu
##ndiyo
##mfumo
##kiasi
##weze
##62
##oloni
kitu
##rasmi
##17
##96
lake
##lewa
##ransa
##enda
##ilimo
##bc
##ff
##shamb
##gombe
##73
##wango
##df
##nne
##42
##piga
##65
##16
##61
##wenda
##49
##makao
##81
##pewa
##06
##falme
##adini
##uziki
##masai
##eleke
##84
dini
##nzani
##jumui
##kombe
##ndari
##gano
##04
##nguvu
##moyo
##92
##76
##chezo
##makuu
##aguzi
##cc
##umizi
##46
##v
##eneza
##afuta
##atizo
##hatua
lime
##erere
##yari
##34
##40
##simam
##nyota
##tano
dola
##iongo
##isiwa
##ve
##78
##tambu
##pelek
es
##unga
##fundi
##arifa
siti
##anzia
##uwezo
##56
##41
##86
##55
##thela
##87
##kikuu
##gumu
huku
##arabu
kifo
##wezi
##chake
mch
afya
juma
##22
bado
##thini
##alaam
##10
##ungu
##jenga
##mungu
##deleo
dawa
##11
##01
##91
##kweli
utam
##zazi
##miguu
##hakik
##rwand
##pango
##lmas
##18
##amua
mapi
##ikiwa
##tumwa
##hibit
##mrefu
##china
##69
##09
##hicho
##pigan
maen
##chagu
huyo
##72
##kadha
##aunti
##aalum
tisi
##93
##wanja
##ardhi
##alamu
tam
##21
##90
##98
##lojia
##geni
##36
##eleza
##mtoto
##63
##hudi
##tabia
##ndogo
##leta
##15
##kubal
ata
kat
##mjini
co
##afiti
##liano
##jinsi
nye
##abila
##baini
##baki
mvua
##z
##dishi
##msini
##ngana
##faham
##funga
##nzuri
##fedha
##frika
##nduzi
##rahis
##suala
them
##imar
##tazam
##riban
huto
##awali
##samba
##duma
##mpira
##tibu
##uaji
##bidha
##mbinu
##tumiw
##aneno
##jambo
##panda
##uwepo
##wakat
ful
##dudu
sabi
##wingi
##lengo
##sauti
##uhuri
##mpuni
ulim
soka
##mlaka
##mwili
##hama
##jibu
chum
##namna
zime
##29
##uawa
##pania
##yansi
umri
pep
##pende
##pamba
##bias
amin
joto
neno
##maliz
raia
##vutio
##ndiye
##benki
##vingi
##ngoro
##jengo
##mnamo
muun
##afiri
##afari
##ikosi
##kulim
##tolew
##pokea
##ifugo
##kimbi
##tukio
##geria
##kundu
##wanzo
##picha
##ilaha
##njaro
##wengu
yetu
##karne
nusu
##pembe
##bonde
##namke
##visiw
##arume
##jumbe
##funzi
##ulizi
##tokeo
##dumu
huyu
##isitu
##ichwa
##funza
##fungu
moto
wiki
##lenye
pro
##isasa
##afisa
##kihis
##ungan
##takiw
##kizwa
##ugaji
##orodh
##mkono
##mbwa
soko
##njo
##asisi
##sahau
##nyiko
##kamat
##kiliz
##ukumu
##usiku
inga
madh
##kiing
##x
##zuia
##yeupe
kote
##nafsi
##ofisi
bei
##oyote
##saada
##mikoa
##asomo
##yeusi
##sukum
##msitu
##hesab
##maan
##furah
##urefu
##penzi
##vutia
##kadir
##zenye
##misri
##wakil
##miezi
homa
##razil
##mimea
##fuati
##jengw
##wenza
fila
##tajwa
##petro
##redio
##lbamu
##kimwi
##tafut
##sekta
##ukari
##jacob
##ahidi
##guar
##adhim
##bwana
##fanik
##amuzi
##sult
##land
sere
##andam
##diola
mzee
##q
##â
##ó
##μ
##ọ
##é
##ː
##ú
##ø
##ụ
##í
##á
##ã
##ü
##ë
##ô
##ũ
##ö
##ạ
##ñ
##ū
##è
##š
##ç
##î
##ā
##ą
##ʿ
##ı
##ł
##å
##ا
##à
##ê
##⁄
##ï
##י
