<unk>	0
▁	-2.43518
a	-3.46263
▁ya	-3.58782
▁wa	-3.58995
▁na	-3.82824
ka	-4.01309
▁ku	-4.10695
▁m	-4.32239
▁ma	-4.44519
▁u	-4.49107
i	-4.49775
ni	-4.50633
▁kwa	-4.65541
o	-4.71069
▁k	-4.75318
▁ki	-4.7637
▁ni	-4.7683
li	-4.87163
▁kati	-4.94161
e	-4.96875
d	-5.0346
▁ali	-5.06605
wa	-5.06769
na	-5.15674
b	-5.16025
f	-5.19374
si	-5.22618
u	-5.24446
▁za	-5.27708
kuwa	-5.29146
c	-5.35537
▁la	-5.37172
ri	-5.37815
ki	-5.42123
zi	-5.5055
ma	-5.51031
ji	-5.51553
ra	-5.53209
▁vi	-5.54145
ti	-5.55253
s	-5.56509
▁hu	-5.57972
ko	-5.61152
▁cha	-5.63354
n	-5.63726
ta	-5.65848
le	-5.66491
te	-5.67389
m	-5.69265
▁wana	-5.69777
▁mi	-5.7105
po	-5.72085
la	-5.76892
▁s	-5.79165
ba	-5.80705
sha	-5.81451
fu	-5.83996
t	-5.8482
▁nchi	-5.85288
mba	-5.89868
▁ili	-5.90305
▁kama	-5.92535
za	-5.94067
wenye	-5.94546
▁ha	-5.94708
3	-5.98304
4	-5.98778
▁ina	-6.00585
we	-6.00747
ku	-6.00841
r	-6.01963
▁wali	-6.03467
7	-6.05996
kubwa	-6.08776
ha	-6.09633
sa	-6.10545
fa	-6.10759
▁pia	-6.10965
5	-6.11032
0	-6.1193
tu	-6.12016
k	-6.12849
▁kuwa	-6.15018
▁moja	-6.15273
pa	-6.15364
ru	-6.16836
isha	-6.17273
kana	-6.18741
me	-6.2176
mbali	-6.23005
▁ana	-6.23423
zo	-6.2356
mu	-6.24194
▁yake	-6.2497
da	-6.25438
to	-6.261
8	-6.26349
di	-6.2638
▁mwa	-6.27356
ngine	-6.31832
▁sana	-6.32013
moja	-6.32044
ja	-6.34537
nga	-6.35238
▁amba	-6.35388
▁kuto	-6.35806
kati	-6.37113
9	-6.37199
mi	-6.37543
hi	-6.37803
weza	-6.38014
ya	-6.38752
▁vya	-6.39518
6	-6.40328
re	-6.404
ke	-6.40651
ga	-6.42051
nda	-6.43526
▁watu	-6.45232
2	-6.47066
ani	-6.47312
ro	-6.47738
lo	-6.49304
cha	-6.49767
▁pa	-6.49847
pi	-6.50027
_	-6.5064
mbo	-6.50642
bu	-6.54518
yo	-6.55036
taifa	-6.55886
▁kuna	-6.56942
zaidi	-6.57199
l	-6.5735
▁n	-6.5782
1	-6.57985
ye	-6.58111
▁hii	-6.58423
▁tan	-6.63551
▁hiyo	-6.63574
▁mia	-6.64482
zania	-6.64951
g	-6.65644
ne	-6.66132
vu	-6.66832
▁elfu	-6.67506
mbili	-6.67554
fanya	-6.69001
▁una	-6.69133
▁au	-6.70264
▁ta	-6.70931
▁afri	-6.70945
▁tu	-6.71408
be	-6.73931
ea	-6.7527
no	-6.78266
mo	-6.78292
shi	-6.78913
pe	-6.79136
wi	-6.80523
▁ba	-6.81228
ngo	-6.82002
hara	-6.82919
cho	-6.84516
ehemu	-6.84646
▁sa	-6.84872
▁wake	-6.85652
y	-6.86424
go	-6.86726
wengi	-6.86972
h	-6.8938
baada	-6.89703
▁si	-6.90455
▁mara	-6.90615
▁laki	-6.90676
sema	-6.91664
se	-6.91863
▁ame	-6.92796
ini	-6.93413
pata	-6.9385
▁zina	-6.94644
▁mash	-6.9479
che	-6.9483
▁hata	-6.96331
nya	-6.96874
kali	-6.96931
p	-6.97
ndo	-6.97025
▁maji	-6.97903
hivyo	-6.98109
ana	-6.98252
ndi	-6.99333
nyama	-6.99464
ishi	-7.00641
ngu	-7.00657
vyo	-7.01173
onjwa	-7.02168
mwaka	-7.02321
ariki	-7.03773
wanza	-7.0512
▁kila	-7.07156
▁huo	-7.07305
lugha	-7.07536
▁nyi	-7.0779
lu	-7.08973
tumia	-7.10413
▁mji	-7.10606
shiri	-7.11887
lia	-7.12019
endel	-7.121
on	-7.12616
pati	-7.13026
▁hadi	-7.13101
nu	-7.13222
ho	-7.13507
ge	-7.141
bo	-7.14127
▁me	-7.14434
▁siku	-7.1453
▁ime	-7.14932
gu	-7.15265
▁kumi	-7.15289
▁hasa	-7.16909
▁ja	-7.16996
▁hali	-7.17337
mani	-7.18254
de	-7.18544
▁tisa	-7.18894
▁uli	-7.19453
▁hi	-7.1946
anza	-7.19467
▁juu	-7.20564
je	-7.2081
▁eneo	-7.22186
j	-7.22633
vi	-7.2342
mbi	-7.2342
ndani	-7.23588
▁kazi	-7.23595
pande	-7.23639
su	-7.24536
fauti	-7.25082
jeshi	-7.25393
▁ug	-7.25655
▁mkuu	-7.27035
bari	-7.27166
mp	-7.2752
mbe	-7.27701
▁seri	-7.27929
liwa	-7.28433
nge	-7.28781
usini	-7.30081
uhimu	-7.3018
▁bara	-7.30431
tokea	-7.31212
▁saba	-7.31422
▁tatu	-7.31892
▁zili	-7.32014
shind	-7.3219
ano	-7.32278
aribu	-7.32334
ongoz	-7.33739
juli	-7.3438
▁w	-7.34381
▁lina	-7.34526
▁rais	-7.34987
sw	-7.35509
▁huu	-7.36008
dunia	-7.36281
dogo	-7.36751
tanga	-7.37902
▁kuu	-7.38042
cheza	-7.3844
aeneo	-7.3866
aribi	-7.39009
ereza	-7.39041
an	-7.39335
▁to	-7.39709
ona	-7.39833
fadhi	-7.39848
▁aki	-7.39981
▁vita	-7.39982
so	-7.40223
▁hawa	-7.40852
▁baad	-7.4115
▁lili	-7.4119
tawal	-7.41477
▁jina	-7.41582
sho	-7.41626
kundi	-7.41677
▁sasa	-7.41794
▁hilo	-7.41992
yingi	-7.43484
hu	-7.43978
asili	-7.44029
ju	-7.44443
nde	-7.45534
va	-7.45863
toka	-7.45966
kenya	-7.46394
kwa	-7.4691
▁we	-7.46966
nzi	-7.47323
▁0	-7.47357
askaz	-7.47403
▁mkoa	-7.47405
▁kuli	-7.47541
fe	-7.47724
toto	-7.48422
chini	-7.48647
gi	-7.49843
heshi	-7.50113
w	-7.50338
kula	-7.51048
aji	-7.51239
rini	-7.51504
damu	-7.51513
▁aina	-7.51552
▁mar	-7.51844
ongez	-7.51945
▁nyum	-7.52015
▁ny	-7.52094
▁asi	-7.52113
▁his	-7.52184
ng	-7.52513
miwa	-7.52515
shu	-7.52676
tangu	-7.52997
toria	-7.53242
yenye	-7.53302
ngi	-7.53485
ganda	-7.53516
▁tano	-7.54087
husi	-7.54212
▁bi	-7.54264
▁duni	-7.54402
▁mtu	-7.54488
husu	-7.55276
anga	-7.56042
wili	-7.56203
fiki	-7.56349
fuata	-7.56415
waida	-7.56895
fem	-7.57191
iwa	-7.57367
kazi	-7.57626
▁mat	-7.57886
he	-7.58002
▁baha	-7.58076
▁wao	-7.58453
sabab	-7.5854
ia	-7.58582
▁wame	-7.58659
▁haku	-7.58911
taji	-7.59111
chumi	-7.5944
sta	-7.59457
ishwa	-7.60059
▁mwi	-7.60341
rangi	-7.60346
▁sita	-7.61588
chu	-7.62781
ita	-7.63961
itwa	-7.64046
mbu	-7.64278
zuri	-7.6428
jiji	-7.65258
pu	-7.65464
kabil	-7.65568
iliyo	-7.65614
jamii	-7.66701
jerum	-7.67316
▁muda	-7.67462
chi	-7.6769
en	-7.67819
yu	-7.67833
▁iko	-7.67941
▁nne	-7.68521
▁njia	-7.68567
rehe	-7.68815
▁mu	-7.69134
atifu	-7.69199
ekani	-7.69453
▁hayo	-7.69763
▁huwa	-7.69852
ilaya	-7.69896
▁kale	-7.69933
▁bu	-7.69956
in	-7.70017
shwa	-7.70337
el	-7.70397
▁kuji	-7.70402
zwa	-7.70669
▁timu	-7.71271
▁yao	-7.71354
▁us	-7.71526
▁aka	-7.71546
▁hili	-7.71705
ilima	-7.72973
▁bila	-7.73573
mwezi	-7.73682
she	-7.74007
▁mazi	-7.74598
ondo	-7.74756
▁wote	-7.74765
ingi	-7.74782
▁huko	-7.7493
▁zote	-7.75086
anz	-7.75355
ika	-7.75845
chang	-7.76036
ahili	-7.76694
▁vile	-7.76837
▁nane	-7.7706
zungu	-7.77494
voice	-7.77723
▁comm	-7.77756
badil	-7.77795
risto	-7.78056
shule	-7.78761
kongo	-7.79005
talii	-7.79395
38	-7.79894
ambu	-7.80695
abisa	-7.80842
▁sw	-7.81554
▁ishi	-7.81778
▁waki	-7.81791
▁bias	-7.82004
tumik	-7.82367
saidi	-7.83149
▁leo	-7.83817
mengi	-7.83871
chama	-7.83928
▁haya	-7.84118
▁nje	-7.84766
arufu	-7.84772
▁pili	-7.85068
dhi	-7.85371
ulaya	-7.86478
57	-7.8719
▁uta	-7.87245
anisa	-7.87419
▁hizi	-7.87696
hami	-7.87734
▁mto	-7.88916
aliye	-7.88968
59	-7.89215
ngwa	-7.89256
singi	-7.89296
rusi	-7.8939
siasa	-7.89985
ria	-7.90134
▁uing	-7.90427
pindi	-7.90864
miaka	-7.9112
kiwa	-7.91126
ze	-7.91396
taka	-7.91454
▁mag	-7.91454
▁al	-7.91831
▁yote	-7.925
chuku	-7.92684
▁twen	-7.92887
wahi	-7.93078
▁uch	-7.9314
▁hapo	-7.93263
fasi	-7.93783
12	-7.93853
68	-7.94183
▁magh	-7.94259
▁hizo	-7.94347
▁dar	-7.94918
83	-7.95232
oliki	-7.95251
▁mtak	-7.95686
mili	-7.9574
th	-7.96507
pekee	-7.96786
jana	-7.96896
viazi	-7.96973
ties	-7.97008
demok	-7.97057
58	-7.97563
andik	-7.98023
inayo	-7.98431
20	-7.98611
kuu	-7.98854
▁yeye	-7.99008
hali	-7.9901
▁kisw	-7.99553
pita	-7.99797
kata	-8.00127
ndege	-8.00411
mbele	-8.00691
▁uk	-8.007
rasia	-8.01453
▁zake	-8.01503
mhuri	-8.01574
nchi	-8.01832
teng	-8.0194
thi	-8.01948
idadi	-8.02854
mwana	-8.03231
adhaa	-8.03233
nzo	-8.03486
ce	-8.0364
shaji	-8.04628
▁bora	-8.04644
▁haki	-8.0466
▁v	-8.04808
oneka	-8.05457
walio	-8.0551
ee	-8.05621
ababu	-8.05799
kabla	-8.05862
milia	-8.05994
▁hao	-8.06024
fanyi	-8.06522
tatu	-8.0726
82	-8.07339
ingia	-8.07529
zibar	-8.08049
▁ndio	-8.08388
bb	-8.08518
liyo	-8.08648
▁zao	-8.09379
ajili	-8.09454
mlima	-8.09464
alama	-8.09831
▁ziwa	-8.09842
mpaka	-8.0991
pwani	-8.10453
ngozi	-8.1047
hauri	-8.10727
07	-8.11119
▁zan	-8.11124
wake	-8.11216
lioni	-8.11506
soma	-8.12011
▁mama	-8.12161
ngira	-8.12245
▁ufa	-8.12266
elimu	-8.12708
97	-8.12721
jimbo	-8.12803
▁kima	-8.12902
rudi	-8.13232
pitia	-8.13246
ghuli	-8.13415
ziri	-8.13861
▁hapa	-8.1406
amini	-8.14243
▁mada	-8.14586
64	-8.14773
jumla	-8.14882
heria	-8.15071
toa	-8.15337
uhuru	-8.15361
▁hivi	-8.15694
iko	-8.15779
▁bina	-8.15998
bd	-8.16006
▁hewa	-8.16253
kumbu	-8.16548
52	-8.16574
dc	-8.1674
penda	-8.16816
pungu	-8.16839
bara	-8.16843
weka	-8.17538
ambao	-8.17548
nyika	-8.1778
▁tena	-8.17804
dhidi	-8.17822
zaliw	-8.17854
32	-8.18209
02	-8.18524
safi	-8.18624
39	-8.18704
▁dha	-8.18709
liko	-8.19451
▁tuna	-8.19626
lishe	-8.19729
inine	-8.19812
mfano	-8.1995
13	-8.19957
kutan	-8.20076
zima	-8.20468
ndu	-8.20687
▁chuo	-8.20713
▁baba	-8.20918
aduni	-8.20944
nayo	-8.21279
wisho	-8.21431
nywa	-8.21438
71	-8.21651
akiwa	-8.21675
gemea	-8.21715
pishi	-8.21951
▁iki	-8.22157
60	-8.22209
limu	-8.22276
28	-8.22313
athir	-8.22321
bunge	-8.22662
50	-8.23238
limia	-8.2338
jua	-8.23409
▁ulio	-8.23589
onye	-8.24248
37	-8.2448
hindi	-8.24567
doksi	-8.246
nyo	-8.24618
nja	-8.24856
rtho	-8.24941
▁ume	-8.2503
mita	-8.25321
▁kum	-8.2539
99	-8.25487
zu	-8.25703
▁mpya	-8.25818
▁tak	-8.2584
▁dali	-8.25996
14	-8.26063
fika	-8.26148
53	-8.26272
74	-8.26288
slamu	-8.26408
ndiyo	-8.26824
mfumo	-8.27026
kiasi	-8.27077
weze	-8.2733
62	-8.27356
oloni	-8.27433
▁kitu	-8.27576
rasmi	-8.27707
17	-8.27713
96	-8.28029
▁lake	-8.28116
lewa	-8.28263
ransa	-8.28282
enda	-8.2844
ilimo	-8.28458
bc	-8.28872
ff	-8.28974
shamb	-8.29269
gombe	-8.29707
73	-8.29735
wango	-8.29868
df	-8.30081
nne	-8.30231
42	-8.30883
piga	-8.3114
65	-8.31568
16	-8.31742
61	-8.31763
wenda	-8.31874
49	-8.31888
makao	-8.32893
81	-8.32907
pewa	-8.32927
06	-8.33043
falme	-8.33609
adini	-8.33996
uziki	-8.34049
masai	-8.34494
eleke	-8.34765
84	-8.34878
▁dini	-8.34889
nzani	-8.35492
jumui	-8.35615
kombe	-8.35665
ndari	-8.35737
gano	-8.35971
04	-8.36442
nguvu	-8.36707
moyo	-8.36773
92	-8.36975
76	-8.37483
chezo	-8.37586
makuu	-8.37918
aguzi	-8.38055
cc	-8.38948
umizi	-8.39275
46	-8.39568
v	-8.40231
eneza	-8.40918
afuta	-8.4149
atizo	-8.41843
hatua	-8.42143
▁lime	-8.42396
erere	-8.42424
yari	-8.42587
34	-8.42893
40	-8.4293
simam	-8.4295
nyota	-8.4356
tano	-8.43629
▁dola	-8.43714
iongo	-8.43776
isiwa	-8.44066
ve	-8.44076
78	-8.44375
tambu	-8.44585
pelek	-8.44667
▁es	-8.45253
unga	-8.45412
fundi	-8.45607
arifa	-8.45688
▁siti	-8.45912
anzia	-8.46144
uwezo	-8.46377
56	-8.46522
41	-8.46563
86	-8.46566
55	-8.46653
thela	-8.46667
87	-8.46753
kikuu	-8.46796
gumu	-8.46801
▁huku	-8.4691
arabu	-8.47044
▁kifo	-8.47164
wezi	-8.47234
chake	-8.4726
▁mch	-8.47523
▁afya	-8.47643
▁juma	-8.47698
22	-8.47802
▁bado	-8.48585
thini	-8.48715
alaam	-8.48907
10	-8.49275
ungu	-8.49989
jenga	-8.50006
mungu	-8.50062
deleo	-8.50157
▁dawa	-8.50171
11	-8.50302
01	-8.50394
91	-8.50789
kweli	-8.50826
▁utam	-8.50878
zazi	-8.51534
miguu	-8.51835
hakik	-8.52118
rwand	-8.52178
pango	-8.52189
lmas	-8.52222
18	-8.52348
amua	-8.52983
▁mapi	-8.53358
ikiwa	-8.53513
tumwa	-8.53547
hibit	-8.53616
mrefu	-8.53707
china	-8.54062
69	-8.54159
09	-8.54675
hicho	-8.55033
pigan	-8.55355
▁maen	-8.55541
chagu	-8.55548
▁huyo	-8.55597
72	-8.55681
kadha	-8.5601
aunti	-8.56102
aalum	-8.56125
▁tisi	-8.56142
93	-8.56456
wanja	-8.5671
ardhi	-8.56984
alamu	-8.57062
▁tam	-8.57716
21	-8.5782
90	-8.57899
98	-8.57916
lojia	-8.5804
geni	-8.58059
36	-8.58158
eleza	-8.58188
mtoto	-8.58797
63	-8.59075
hudi	-8.59117
tabia	-8.59401
ndogo	-8.59756
leta	-8.60116
15	-8.60384
kubal	-8.60463
▁ata	-8.60608
▁kat	-8.60843
mjini	-8.60947
▁co	-8.61168
afiti	-8.6126
liano	-8.61294
jinsi	-8.61503
▁nye	-8.61574
abila	-8.61769
baini	-8.62124
baki	-8.62406
▁mvua	-8.62626
z	-8.62627
dishi	-8.62726
msini	-8.62917
ngana	-8.63393
faham	-8.6382
funga	-8.64296
nzuri	-8.6444
fedha	-8.64578
frika	-8.64635
nduzi	-8.64663
rahis	-8.64849
suala	-8.65432
▁them	-8.65583
imar	-8.65697
tazam	-8.6578
riban	-8.66131
▁huto	-8.66175
awali	-8.66931
samba	-8.6729
duma	-8.67502
mpira	-8.67638
tibu	-8.67944
uaji	-8.68249
bidha	-8.68315
mbinu	-8.68538
tumiw	-8.68679
aneno	-8.68818
jambo	-8.69026
panda	-8.69031
uwepo	-8.69388
wakat	-8.69579
▁ful	-8.69643
dudu	-8.7008
▁sabi	-8.70713
wingi	-8.70935
lengo	-8.70941
sauti	-8.71338
uhuri	-8.71747
mpuni	-8.71798
▁ulim	-8.72132
▁soka	-8.7217
mlaka	-8.72335
mwili	-8.72523
hama	-8.72564
jibu	-8.72888
▁chum	-8.73707
namna	-8.73818
▁zime	-8.74132
29	-8.74896
uawa	-8.75849
pania	-8.75895
yansi	-8.7628
▁umri	-8.76369
▁pep	-8.76379
pende	-8.76992
pamba	-8.77756
bias	-8.78792
▁amin	-8.79146
▁joto	-8.8032
▁neno	-8.80465
maliz	-8.80508
▁raia	-8.81297
vutio	-8.81438
ndiye	-8.81521
benki	-8.81611
vingi	-8.81674
ngoro	-8.82856
jengo	-8.83763
mnamo	-8.84151
▁muun	-8.8418
afiri	-8.84663
afari	-8.84695
ikosi	-8.84776
kulim	-8.84796
tolew	-8.85628
pokea	-8.85636
ifugo	-8.85752
kimbi	-8.86598
tukio	-8.8712
geria	-8.87139
kundu	-8.87571
wanzo	-8.88247
picha	-8.88517
ilaha	-8.88702
njaro	-8.88748
wengu	-8.88754
▁yetu	-8.89131
karne	-8.89132
▁nusu	-8.89274
pembe	-8.89653
bonde	-8.89855
namke	-8.90062
visiw	-8.90182
arume	-8.90234
jumbe	-8.90567
funzi	-8.90627
ulizi	-8.90681
tokeo	-8.91055
dumu	-8.91311
▁huyu	-8.91754
isitu	-8.91814
ichwa	-8.92272
funza	-8.92561
fungu	-8.92609
▁moto	-8.93583
▁wiki	-8.93814
lenye	-8.94096
▁pro	-8.947
isasa	-8.94974
afisa	-8.9524
kihis	-8.95393
ungan	-8.95558
takiw	-8.95646
kizwa	-8.95733
ugaji	-8.95983
orodh	-8.96133
mkono	-8.96477
mbwa	-8.97166
▁soko	-8.97265
njo	-8.97944
asisi	-8.98937
sahau	-8.99147
nyiko	-8.99301
kamat	-8.99365
kiliz	-8.99408
ukumu	-9.00435
usiku	-9.00506
▁inga	-9.00981
▁madh	-9.01396
kiing	-9.0146
x	-9.02335
zuia	-9.02592
yeupe	-9.02619
▁kote	-9.03541
nafsi	-9.04001
ofisi	-9.04154
▁bei	-9.04401
oyote	-9.04772
saada	-9.05054
mikoa	-9.06008
asomo	-9.06644
yeusi	-9.06834
sukum	-9.06996
msitu	-9.07479
hesab	-9.0838
maan	-9.08519
furah	-9.09068
urefu	-9.09599
penzi	-9.0985
vutia	-9.10677
kadir	-9.10949
zenye	-9.11025
misri	-9.11035
wakil	-9.11056
miezi	-9.11466
▁homa	-9.11595
razil	-9.11708
mimea	-9.11825
fuati	-9.11849
jengw	-9.12014
wenza	-9.12201
▁fila	-9.13055
tajwa	-9.13085
petro	-9.14079
redio	-9.14482
lbamu	-9.14538
kimwi	-9.14738
tafut	-9.15148
sekta	-9.16257
ukari	-9.1628
jacob	-9.16639
ahidi	-9.17032
guar	-9.17307
adhim	-9.17449
bwana	-9.17592
fanik	-9.185
amuzi	-9.1859
sult	-9.18761
land	-9.18962
▁sere	-9.19313
andam	-9.19327
diola	-9.19855
▁mzee	-9.20036
q	-9.25164
â	-10.7687
ó	-11.6279
μ	-12.0239
ọ	-12.082
é	-12.3248
ː	-12.3248
ú	-12.3402
ø	-12.4209
ụ	-12.4726
í	-12.5272
á	-12.6891
ã	-12.8825
ü	-12.9373
ë	-12.9953
ô	-13.1224
ũ	-13.1569
ö	-13.1569
ạ	-13.1569
ñ	-13.1569
ū	-13.1926
è	-13.6445
š	-14.4912
ç	-14.6341
î	-15.0008
ā	-15.0008
ą	-15.0008
ʿ	-15.0008
ı	-15.2508
ł	-15.2508
å	-15.584
ا	-15.5841
à	-15.5841
ê	-15.5841
⁄	-15.5841
ï	-15.5841
י	-15.5841
